{
  "0": "\u0000",
  "1": "\u0001",
  "2": "\u0002",
  "3": "\u0003",
  "4": "\u0004",
  "5": "\u0005",
  "6": "\u0006",
  "7": "\u0007",
  "8": "\b",
  "9": "\t",
  "10": "\n",
  "11": "\u000b",
  "12": "\f",
  "13": "\r",
  "14": "\u000e",
  "15": "\u000f",
  "16": "\u0010",
  "17": "\u0011",
  "18": "\u0012",
  "19": "\u0013",
  "20": "\u0014",
  "21": "\u0015",
  "22": "\u0016",
  "23": "\u0017",
  "24": "\u0018",
  "25": "\u0019",
  "26": "\u001a",
  "27": "\u001b",
  "28": "\u001c",
  "29": "\u001d",
  "30": "\u001e",
  "31": "\u001f",
  "32": " ",
  "33": "!",
  "34": "\"",
  "35": "#",
  "36": "$",
  "37": "%",
  "38": "&",
  "39": "'",
  "40": "(",
  "41": ")",
  "42": "*",
  "43": "+",
  "44": ",",
  "45": "-",
  "46": ".",
  "47": "/",
  "48": "0",
  "49": "1",
  "50": "2",
  "51": "3",
  "52": "4",
  "53": "5",
  "54": "6",
  "55": "7",
  "56": "8",
  "57": "9",
  "58": ":",
  "59": ";",
  "60": "<",
  "61": "=",
  "62": ">",
  "63": "?",
  "64": "@",
  "65": "A",
  "66": "B",
  "67": "C",
  "68": "D",
  "69": "E",
  "70": "F",
  "71": "G",
  "72": "H",
  "73": "I",
  "74": "J",
  "75": "K",
  "76": "L",
  "77": "M",
  "78": "N",
  "79": "O",
  "80": "P",
  "81": "Q",
  "82": "R",
  "83": "S",
  "84": "T",
  "85": "U",
  "86": "V",
  "87": "W",
  "88": "X",
  "89": "Y",
  "90": "Z",
  "91": "[",
  "92": "\\",
  "93": "]",
  "94": "^",
  "95": "_",
  "96": "`",
  "97": "a",
  "98": "b",
  "99": "c",
  "100": "d",
  "101": "e",
  "102": "f",
  "103": "g",
  "104": "h",
  "105": "i",
  "106": "j",
  "107": "k",
  "108": "l",
  "109": "m",
  "110": "n",
  "111": "o",
  "112": "p",
  "113": "q",
  "114": "r",
  "115": "s",
  "116": "t",
  "117": "u",
  "118": "v",
  "119": "w",
  "120": "x",
  "121": "y",
  "122": "z",
  "123": "{",
  "124": "|",
  "125": "}",
  "126": "~",
  "127": "",
  "128": "",
  "129": "",
  "130": "",
  "131": "",
  "132": "",
  "133": "",
  "134": "",
  "135": "",
  "136": "",
  "137": "",
  "138": "",
  "139": "",
  "140": "",
  "141": "",
  "142": "",
  "143": "",
  "144": "",
  "145": "",
  "146": "",
  "147": "",
  "148": "",
  "149": "",
  "150": "",
  "151": "",
  "152": "",
  "153": "",
  "154": "",
  "155": "",
  "156": "",
  "157": "",
  "158": "",
  "159": "",
  "160": " ",
  "161": "¡",
  "162": "¢",
  "163": "£",
  "164": "¤",
  "165": "¥",
  "166": "¦",
  "167": "§",
  "168": "¨",
  "169": "©",
  "170": "ª",
  "171": "«",
  "172": "¬",
  "173": "­",
  "174": "®",
  "175": "¯",
  "176": "°",
  "177": "±",
  "178": "²",
  "179": "³",
  "180": "´",
  "181": "µ",
  "182": "¶",
  "183": "·",
  "184": "¸",
  "185": "¹",
  "186": "º",
  "187": "»",
  "188": "¼",
  "189": "½",
  "190": "¾",
  "191": "¿",
  "192": "À",
  "193": "Á",
  "194": "Â",
  "195": "Ã",
  "196": "Ä",
  "197": "Å",
  "198": "Æ",
  "199": "Ç",
  "200": "È",
  "201": "É",
  "202": "Ê",
  "203": "Ë",
  "204": "Ì",
  "205": "Í",
  "206": "Î",
  "207": "Ï",
  "208": "Ð",
  "209": "Ñ",
  "210": "Ò",
  "211": "Ó",
  "212": "Ô",
  "213": "Õ",
  "214": "Ö",
  "215": "×",
  "216": "Ø",
  "217": "Ù",
  "218": "Ú",
  "219": "Û",
  "220": "Ü",
  "221": "Ý",
  "222": "Þ",
  "223": "ß",
  "224": "à",
  "225": "á",
  "226": "â",
  "227": "ã",
  "228": "ä",
  "229": "å",
  "230": "æ",
  "231": "ç",
  "232": "è",
  "233": "é",
  "234": "ê",
  "235": "ë",
  "236": "ì",
  "237": "í",
  "238": "î",
  "239": "ï",
  "240": "ð",
  "241": "ñ",
  "242": "ò",
  "243": "ó",
  "244": "ô",
  "245": "õ",
  "246": "ö",
  "247": "÷",
  "248": "ø",
  "249": "ù",
  "250": "ú",
  "251": "û",
  "252": "ü",
  "253": "ý",
  "254": "þ",
  "255": "ÿ",
  "256": "Ġ",
  "257": "<|endoftext|>",
  "258": "eĠ",
  "259": "Ġt",
  "260": "dĠ",
  "261": "tĠ",
  "262": "in",
  "263": "sĠ",
  "264": "heĠ",
  "265": "ha",
  "266": ",Ġ",
  "267": "ou",
  "268": "er",
  "269": "an",
  "270": "on",
  "271": "en",
  "272": "ĠtheĠ",
  "273": "yĠ",
  "274": ".Ġ",
  "275": "oĠ",
  "276": "ing",
  "277": "hi",
  "278": "it",
  "279": "edĠ",
  "280": "IĠ",
  "281": "of",
  "282": "wa",
  "283": "st",
  "284": "--",
  "285": "or",
  "286": "ea",
  "287": "Ġa",
  "288": "\n\n",
  "289": "ur",
  "290": "el",
  "291": "andĠ",
  "292": "ĠtoĠ",
  "293": "es",
  "294": "ow",
  "295": "ofĠ",
  "296": "ingĠ",
  "297": "at",
  "298": "is",
  "299": "hisĠ",
  "300": "ac",
  "301": "Ġth",
  "302": "ic",
  "303": "ed",
  "304": "al",
  "305": "be",
  "306": "om",
  "307": "gh",
  "308": "eĠt",
  "309": "hatĠ",
  "310": "wasĠ",
  "311": "Ġs",
  "312": "hadĠ",
  "313": "her",
  "314": ".\n\n",
  "315": "us",
  "316": "enĠ",
  "317": "ain",
  "318": "him",
  "319": "ar",
  "320": "aĠ",
  "321": "itĠ",
  "322": "ir",
  "323": "re",
  "324": "veĠ",
  "325": "myĠ",
  "326": "ch",
  "327": "li",
  "328": "ith",
  "329": "ra",
  "330": "with",
  "331": "id",
  "332": "'sĠ",
  "333": "ear",
  "334": "se",
  "335": "rou",
  "336": "la",
  "337": "ro",
  "338": "for",
  "339": "oul",
  "340": "ĠthatĠ",
  "341": "ab",
  "342": "\"\n\n",
  "343": "sa",
  "344": "ĠaĠ",
  "345": "ver",
  "346": "ll",
  "347": "rs",
  "348": "you",
  "349": "ion",
  "350": ".\n\n\"",
  "351": "e,Ġ",
  "352": "urn",
  "353": "fĠ",
  "354": "no",
  "355": "ent",
  "356": "leĠ",
  "357": "le",
  "358": "ly",
  "359": "ter",
  "360": "up",
  "361": "'tĠ",
  "362": "oneĠ",
  "363": "ack",
  "364": "oo",
  "365": "haveĠ",
  "366": "un",
  "367": "asĠ",
  "368": "wh",
  "369": "utĠ",
  "370": "pain",
  "371": "est",
  "372": "t,Ġ",
  "373": "burn",
  "374": "ec",
  "375": "rs.Ġ",
  "376": "Mrs.Ġ",
  "377": "ofĠtheĠ",
  "378": "was",
  "379": "th",
  "380": "ĠandĠ",
  "381": ".\"\n\n",
  "382": "own",
  "383": "sel",
  "384": "trou",
  "385": "eĠtoĠ",
  "386": "Gis",
  "387": "meĠ",
  "388": "Gisburn",
  "389": "ict",
  "390": "onĠ",
  "391": "lyĠ",
  "392": "ell",
  "393": "Strou",
  "394": "and",
  "395": "n'tĠ",
  "396": "herĠ",
  "397": "qu",
  "398": "\"Ġ",
  "399": "me",
  "400": "ghtĠ",
  "401": "sh",
  "402": "ne",
  "403": "youĠ",
  "404": "su",
  "405": "ouldĠ",
  "406": "Ġthe",
  "407": "inĠ",
  "408": "ol",
  "409": "owĠ",
  "410": ":Ġ",
  "411": ".Ġ.Ġ",
  "412": "iv",
  "413": "ke",
  "414": "pict",
  "415": ",ĠandĠ",
  "416": "pictur",
  "417": "orĠ",
  "418": "rea",
  "419": "TheĠ",
  "420": "anĠ",
  "421": "os",
  "422": "our",
  "423": "outĠ",
  "424": "mi",
  "425": "paint",
  "426": "Jack",
  "427": ",ĠIĠ",
  "428": "fac",
  "429": "entĠ",
  "430": "ĠofĠ",
  "431": "tĠtheĠ",
  "432": "all",
  "433": "pr",
  "434": "!Ġ",
  "435": "Ġtha",
  "436": "ation",
  "437": "esĠ",
  "438": "HeĠ",
  "439": "edĠtoĠ",
  "440": "don",
  "441": "der",
  "442": "ind",
  "443": "pp",
  "444": "y.Ġ",
  "445": "im",
  "446": "anc",
  "447": "eĠofĠ",
  "448": "himĠ",
  "449": "idĠ",
  "450": "ca",
  "451": "ex",
  "452": "ustĠ",
  "453": "ndĠ",
  "454": "withĠ",
  "455": "ever",
  "456": "wer",
  "457": "Ġb",
  "458": "as",
  "459": "not",
  "460": "ook",
  "461": "inĠtheĠ",
  "462": "soĠ",
  "463": "ut",
  "464": "we",
  "465": "look",
  "466": "Ġto",
  "467": "et",
  "468": "ItĠ",
  "469": "IĠc",
  "470": "ev",
  "471": "eĠtheĠ",
  "472": "Mrs.ĠGisburn",
  "473": "dis",
  "474": "ov",
  "475": "nd",
  "476": ";ĠandĠ",
  "477": "cur",
  "478": "ag",
  "479": "ri",
  "480": "forĠ",
  "481": "po",
  "482": "dn'tĠ",
  "483": "sheĠ",
  "484": "ill",
  "485": "ght",
  "486": "ong",
  "487": "ey",
  "488": "_Ġ",
  "489": "pl",
  "490": "?Ġ",
  "491": "de",
  "492": "kn",
  "493": "str",
  "494": "ouldn'tĠ",
  "495": "ouldĠhaveĠ",
  "496": "ousĠ",
  "497": "-c",
  "498": "IĠhadĠ",
  "499": "earĠ",
  "500": "com",
  "501": "wor",
  "502": "ot",
  "503": "lik",
  "504": ":Ġ\"",
  "505": "tch",
  "506": "Stroud",
  "507": "beenĠ",
  "508": "ick",
  "509": "justĠ",
  "510": "withĠaĠ",
  "511": "br",
  "512": "heĠhadĠ",
  "513": "ess",
  "514": "notĠ",
  "515": "himsel",
  "516": "byĠ",
  "517": "stĠ",
  "518": "ct",
  "519": "down",
  "520": "dd",
  "521": "es--",
  "522": "ig",
  "523": "fa",
  "524": "ay",
  "525": ",ĠtheĠ",
  "526": "kĠ",
  "527": "heĠwasĠ",
  "528": "wĠ",
  "529": "if",
  "530": "room",
  "531": "beca",
  "532": "way",
  "533": "Th",
  "534": "IĠf",
  "535": "useĠ",
  "536": "under",
  "537": "seeĠ",
  "538": "ul",
  "539": "rough",
  "540": "did",
  "541": "ant",
  "542": "s,Ġ",
  "543": "StroudĠ",
  "544": "um",
  "545": "e'sĠ",
  "546": "ous",
  "547": "whenĠ",
  "548": "yĠofĠ",
  "549": "SheĠ",
  "550": "--t",
  "551": "said",
  "552": "AndĠ",
  "553": "rom",
  "554": "ead",
  "555": "cou",
  "556": "e.Ġ",
  "557": "ifĠ",
  "558": "ect",
  "559": "oldĠ",
  "560": "bet",
  "561": "bl",
  "562": "say",
  "563": "edĠit",
  "564": "int",
  "565": "kne",
  "566": "been",
  "567": "deĠ",
  "568": "estĠ",
  "569": "il",
  "570": "ough",
  "571": "pictureĠ",
  "572": "Ġther",
  "573": "my",
  "574": "out",
  "575": "isĠ",
  "576": "lif",
  "577": "hereĠ",
  "578": "som",
  "579": "wouldĠhaveĠ",
  "580": "iousĠ",
  "581": "elyĠ",
  "582": "lit",
  "583": "youĠkn",
  "584": "di",
  "585": "e--",
  "586": "rac",
  "587": "noĠ",
  "588": ".\n\n\"O",
  "589": "Ġthrough",
  "590": "ĠhisĠ",
  "591": "Ġthat,Ġ",
  "592": "onlyĠ",
  "593": "s.Ġ",
  "594": "ĠtheyĠ",
  "595": "hear",
  "596": "Rick",
  "597": "edĠtheĠ",
  "598": "becauseĠ",
  "599": "Ġp",
  "600": "butĠ",
  "601": "Jack'sĠ",
  "602": "itĠwasĠ",
  "603": "am",
  "604": "eĠthatĠ",
  "605": "aĠs",
  "606": "ButĠ",
  "607": "ham",
  "608": "sur",
  "609": "ck",
  "610": "ed,Ġ",
  "611": "over",
  "612": ",\"Ġ",
  "613": "inc",
  "614": "gl",
  "615": "whatĠ",
  "616": "edĠup",
  "617": "ly,Ġ",
  "618": "from",
  "619": "Rickham",
  "620": "do",
  "621": "IĠfel",
  "622": "mor",
  "623": "atĠtheĠ",
  "624": "watch",
  "625": "ma",
  "626": "iveĠ",
  "627": "pre",
  "628": "Ġab",
  "629": "ĠtoĠhaveĠ",
  "630": "betwe",
  "631": "'t",
  "632": "whoĠ",
  "633": "?\"\n\n",
  "634": "oseĠ",
  "635": "oughtĠ",
  "636": "beĠ",
  "637": "wom",
  "638": "IĠwasĠ",
  "639": "bj",
  "640": "rind",
  "641": "rat",
  "642": "atĠ",
  "643": "fir",
  "644": "had",
  "645": "ableĠ",
  "646": "sĠofĠ",
  "647": "Wh",
  "648": "min",
  "649": "ek",
  "650": "lau",
  "651": "Well",
  "652": "h,Ġ",
  "653": "wing",
  "654": "Ġtheir",
  "655": "--andĠ",
  "656": ".\"\n\n\"",
  "657": "ĠsheĠ",
  "658": "back",
  "659": "edĠhisĠ",
  "660": "Grind",
  "661": "oneĠofĠtheĠ",
  "662": "ep",
  "663": "nĠ",
  "664": "painting",
  "665": "lat",
  "666": "pro",
  "667": "fter",
  "668": "putĠ",
  "669": "fra",
  "670": "alĠ",
  "671": "work",
  "672": "ru",
  "673": "litt",
  "674": "ood",
  "675": "dra",
  "676": "cr",
  "677": "em",
  "678": "con",
  "679": "everĠ",
  "680": "himselfĠ",
  "681": "--asĠ",
  "682": "Ġthat",
  "683": "gre",
  "684": "ItĠwasĠ",
  "685": "donke",
  "686": "indĠ",
  "687": "giv",
  "688": ".ĠTheĠ",
  "689": "hav",
  "690": "ĠthereĠ",
  "691": "ĠthatĠIĠ",
  "692": "lastĠ",
  "693": "paintĠ",
  "694": "ound",
  "695": "hedĠ",
  "696": "itter",
  "697": "again",
  "698": "ff",
  "699": "'Ġ",
  "700": "IĠw",
  "701": "alit",
  "702": "res",
  "703": "per",
  "704": "seĠ",
  "705": "ed.Ġ",
  "706": "Ġar",
  "707": "ĠtoĠtheĠ",
  "708": "enough",
  "709": "IĠt",
  "710": "ionĠ",
  "711": "waysĠ",
  "712": "rof",
  "713": "such",
  "714": "youĠknow",
  "715": "uck",
  "716": "didn'tĠ",
  "717": "wereĠ",
  "718": "JackĠ",
  "719": "-room",
  "720": "IĠfeltĠ",
  "721": "intoĠ",
  "722": ";Ġ",
  "723": "end",
  "724": "nowĠ",
  "725": "OfĠ",
  "726": "self",
  "727": "erĠ",
  "728": "saidĠ",
  "729": "ort",
  "730": "ortra",
  "731": ",ĠasĠ",
  "732": "I'",
  "733": "od",
  "734": "happ",
  "735": "Ġthing",
  "736": "me,Ġ",
  "737": "cl",
  "738": "wif",
  "739": "--hisĠ",
  "740": "illĠ",
  "741": "ist",
  "742": "stro",
  "743": "beg",
  "744": "day",
  "745": "y,Ġ",
  "746": "alwaysĠ",
  "747": "ellĠ",
  "748": "light",
  "749": "laugh",
  "750": "icat",
  "751": ",\"",
  "752": "man",
  "753": "inĠaĠ",
  "754": "ingĠtheĠ",
  "755": "ourĠ",
  "756": "ĠthoughtĠ",
  "757": "pris",
  "758": "onĠtheĠ",
  "759": "hand",
  "760": "him,Ġ",
  "761": "show",
  "762": "givenĠ",
  "763": "hair",
  "764": "eyesĠ",
  "765": "it,Ġ",
  "766": "whi",
  "767": "atis",
  "768": "ust",
  "769": "orĠStroud",
  "770": "edĠme",
  "771": "littleĠ",
  "772": "it--",
  "773": "ost",
  "774": "eath",
  "775": "Ġtri",
  "776": "reĠ",
  "777": "hadĠl",
  "778": "ation.Ġ",
  "779": "bleĠ",
  "780": "pect",
  "781": "eĠs",
  "782": "ĠbutĠ",
  "783": "ĠatĠtheĠ",
  "784": "Ġsur",
  "785": "mightĠ",
  "786": "Ġat",
  "787": "e_Ġ",
  "788": "mov",
  "789": "portra",
  "790": "ectĠ",
  "791": "manag",
  "792": "arm",
  "793": "fact",
  "794": "edĠinĠ",
  "795": "ratherĠ",
  "796": "whenĠIĠ",
  "797": "terest",
  "798": "mil",
  "799": "pleĠ",
  "800": "ness",
  "801": "obj",
  "802": "grea",
  "803": "off",
  "804": "ton",
  "805": "mod",
  "806": "ingĠhisĠ",
  "807": "air",
  "808": "heĠwas",
  "809": "he",
  "810": "Ġthem",
  "811": "antĠ",
  "812": "Ġsp",
  "813": "har",
  "814": "want",
  "815": "allĠtheĠ",
  "816": "plac",
  "817": "--theĠ",
  "818": "ak",
  "819": "Grindle",
  "820": "dead",
  "821": "edĠhimĠ",
  "822": "fail",
  "823": "rseĠ",
  "824": "ctiv",
  "825": "began",
  "826": "Ġsa",
  "827": "tain",
  "828": "essĠ",
  "829": "poorĠStroud",
  "830": "ftĠ",
  "831": "whereĠ",
  "832": "lo",
  "833": "ĠtooĠ",
  "834": ",\"ĠsheĠ",
  "835": "howĠ",
  "836": ".ĠHeĠ",
  "837": "likeĠ",
  "838": "ĠaĠs",
  "839": "nearĠ",
  "840": "ps",
  "841": "imp",
  "842": "hadĠbeenĠ",
  "843": "aboutĠ",
  "844": "ier",
  "845": "ti",
  "846": "'s",
  "847": "oĠtheĠ",
  "848": "laidĠ",
  "849": "ainĠ",
  "850": "ĠtellĠ",
  "851": "?\"Ġ",
  "852": ";ĠbutĠ",
  "853": "uch",
  "854": "-p",
  "855": "edĠbyĠ",
  "856": "never",
  "857": "year",
  "858": "Ġter",
  "859": "ĠthroughĠ",
  "860": "knewĠ",
  "861": "hisĠpictur",
  "862": ".Ġ.Ġ.Ġ.Ġ",
  "863": "orn",
  "864": "ten",
  "865": "abl",
  "866": "saw",
  "867": ".ĠT",
  "868": "happen",
  "869": "llĠ",
  "870": "cover",
  "871": "Ġthin",
  "872": "fl",
  "873": "gg",
  "874": "Ġtw",
  "875": "glor",
  "876": "letĠ",
  "877": "oodĠ",
  "878": "wentĠ",
  "879": "itĠwouldĠhaveĠ",
  "880": "how",
  "881": "areĠ",
  "882": "interest",
  "883": "beh",
  "884": "eadĠ",
  "885": "downĠ",
  "886": "teĠ",
  "887": "ans",
  "888": "hal",
  "889": "HisĠ",
  "890": "endĠ",
  "891": "par",
  "892": ",ĠIĠhadĠ",
  "893": "n't",
  "894": ".\n\nIĠ",
  "895": "IĠcouldn'tĠ",
  "896": "goĠ",
  "897": "courseĠ",
  "898": "lay",
  "899": "thing",
  "900": "etĠ",
  "901": "Crof",
  "902": "onder",
  "903": "ketch",
  "904": "mar",
  "905": "Ġtra",
  "906": "sp",
  "907": "\n\n\"",
  "908": "Ġthat,ĠinĠtheĠ",
  "909": ".Ġ.Ġ.Ġ",
  "910": "heĠwasĠdead",
  "911": "stra",
  "912": "sen",
  "913": "who",
  "914": "roseĠ",
  "915": "ivier",
  "916": "first",
  "917": "your",
  "918": "me--",
  "919": "someĠ",
  "920": "sto",
  "921": "great",
  "922": "ood-",
  "923": "interesting",
  "924": "coun",
  "925": "omeĠ",
  "926": "irc",
  "927": "answer",
  "928": "ingĠitĠ",
  "929": ",Ġin",
  "930": "himself",
  "931": "itu",
  "932": "hadĠtheĠ",
  "933": "--thatĠ",
  "934": "ceĠ",
  "935": "beingĠ",
  "936": "between",
  "937": "ment",
  "938": "glanc",
  "939": "eyĠ",
  "940": "Ġafter",
  "941": "befor",
  "942": "oc",
  "943": "row",
  "944": "es,Ġ",
  "945": "ĠaboutĠ",
  "946": "ss",
  "947": "eni",
  "948": "Thwing",
  "949": "quest",
  "950": "ĠthinkĠ",
  "951": "ongĠ",
  "952": "Ġag",
  "953": "lin",
  "954": "IfĠ",
  "955": "Mon",
  "956": "e.\n\n\"",
  "957": "tingĠ",
  "958": "otherĠ",
  "959": "ĠofĠtheĠ",
  "960": "wonder",
  "961": "so",
  "962": "ingĠmeĠ",
  "963": "sketch",
  "964": "evenĠ",
  "965": "yĠmor",
  "966": "usb",
  "967": "att",
  "968": "iron",
  "969": "elicat",
  "970": "lookedĠup",
  "971": "form",
  "972": "uteĠ",
  "973": "hou",
  "974": "osit",
  "975": "e,ĠandĠ",
  "976": "ech",
  "977": "Rivier",
  "978": "qualit",
  "979": "Ġl",
  "980": "ationsĠ",
  "981": "husb",
  "982": "prec",
  "983": "firstĠ",
  "984": "--becauseĠ",
  "985": "easel",
  "986": "Mis",
  "987": "Yes--",
  "988": "ĠbyĠ",
  "989": "gĠ",
  "990": "precat",
  "991": "sentĠ",
  "992": ".\n\n\"Oh,Ġ",
  "993": "che",
  "994": "exc",
  "995": "Ġfrom",
  "996": "IĠdon",
  "997": "getĠ",
  "998": "sinc",
  "999": "Ġapp"
}